#pragma once
#include <stdint.h>

alignas(16) const unsigned char mnist_cnn_int8_model[] = {
  0x1c, 0x00, 0x00, 0x00, 0x54, 0x46, 0x4c, 0x33, 0x14, 0x00, 0x20, 0x00,
  0x1c, 0x00, 0x18, 0x00, 0x14, 0x00, 0x10, 0x00, 0x0c, 0x00, 0x00, 0x00,
  0x08, 0x00, 0x04, 0x00, 0x14, 0x00, 0x00, 0x00, 0x1c, 0x00, 0x00, 0x00,
  0x98, 0x00, 0x00, 0x00, 0xf0, 0x00, 0x00, 0x00, 0x20, 0x08, 0x00, 0x00,
  0x30, 0x08, 0x00, 0x00, 0xbc, 0x13, 0x00, 0x00, 0x03, 0x00, 0x00, 0x00,
  0x01, 0x00, 0x00, 0x00, 0x10, 0x00, 0x00, 0x00, 0x00, 0x00, 0x0a, 0x00,
  0x10, 0x00, 0x0c, 0x00, 0x08, 0x00, 0x04, 0x00, 0x0a, 0x00, 0x00, 0x00,
  0x0c, 0x00, 0x00, 0x00, 0x1c, 0x00, 0x00, 0x00, 0x3c, 0x00, 0x00, 0x00,
  0x0f, 0x00, 0x00, 0x00, 0x73, 0x65, 0x72, 0x76, 0x69, 0x6e, 0x67, 0x5f,
  0x64, 0x65, 0x66, 0x61, 0x75, 0x6c, 0x74, 0x00, 0x01, 0x00, 0x00, 0x00,
  0x04, 0x00, 0x00, 0x00, 0x90, 0xff, 0xff, 0xff, 0x0c, 0x00, 0x00, 0x00,
  0x04, 0x00, 0x00, 0x00, 0x08, 0x00, 0x00, 0x00, 0x6f, 0x75, 0x74, 0x70,
  0x75, 0x74, 0x5f, 0x30, 0x00, 0x00, 0x00, 0x00, 0x01, 0x00, 0x00, 0x00,
  0x04, 0x00, 0x00, 0x00, 0xc2, 0xf7, 0xff, 0xff, 0x04, 0x00, 0x00, 0x00,
  0x0c, 0x00, 0x00, 0x00, 0x6b, 0x65, 0x72, 0x61, 0x73, 0x5f, 0x74, 0x65,
  0x6e, 0x73, 0x6f, 0x72, 0x00, 0x00, 0x00, 0x00, 0x02, 0x00, 0x00, 0x00,
  0x34, 0x00, 0x00, 0x00, 0x04, 0x00, 0x00, 0x00, 0xdc, 0xff, 0xff, 0xff,
  0x0f, 0x00, 0x00, 0x00, 0x04, 0x00, 0x00, 0x00, 0x13, 0x00, 0x00, 0x00,
  0x43, 0x4f, 0x4e, 0x56, 0x45, 0x52, 0x53, 0x49, 0x4f, 0x4e, 0x5f, 0x4d,
  0x45, 0x54, 0x41, 0x44, 0x41, 0x54, 0x41, 0x00, 0x08, 0x00, 0x0c, 0x00,
  0x08, 0x00, 0x04, 0x00, 0x08, 0x00, 0x00, 0x00, 0x0e, 0x00, 0x00, 0x00,
  0x04, 0x00, 0x00, 0x00, 0x13, 0x00, 0x00, 0x00, 0x6d, 0x69, 0x6e, 0x5f,
  0x72, 0x75, 0x6e, 0x74, 0x69, 0x6d, 0x65, 0x5f, 0x76, 0x65, 0x72, 0x73,
  0x69, 0x6f, 0x6e, 0x00, 0x10, 0x00, 0x00, 0x00, 0x2c, 0x07, 0x00, 0x00,
  0x24, 0x07, 0x00, 0x00, 0x0c, 0x07, 0x00, 0x00, 0xd4, 0x06, 0x00, 0x00,
  0x24, 0x06, 0x00, 0x00, 0xd4, 0x05, 0x00, 0x00, 0x44, 0x01, 0x00, 0x00,
  0x14, 0x01, 0x00, 0x00, 0xbc, 0x00, 0x00, 0x00, 0xb4, 0x00, 0x00, 0x00,
  0xac, 0x00, 0x00, 0x00, 0xa4, 0x00, 0x00, 0x00, 0x9c, 0x00, 0x00, 0x00,
  0x94, 0x00, 0x00, 0x00, 0x74, 0x00, 0x00, 0x00, 0x04, 0x00, 0x00, 0x00,
  0x7e, 0xf8, 0xff, 0xff, 0x04, 0x00, 0x00, 0x00, 0x60, 0x00, 0x00, 0x00,
  0x0c, 0x00, 0x00, 0x00, 0x08, 0x00, 0x0e, 0x00, 0x08, 0x00, 0x04, 0x00,
  0x08, 0x00, 0x00, 0x00, 0x10, 0x00, 0x00, 0x00, 0x28, 0x00, 0x00, 0x00,
  0x00, 0x00, 0x06, 0x00, 0x08, 0x00, 0x04, 0x00, 0x06, 0x00, 0x00, 0x00,
  0x04, 0x00, 0x00, 0x00, 0x01, 0x00, 0x00, 0x00, 0xeb, 0x03, 0x00, 0x00,
  0x0c, 0x00, 0x18, 0x00, 0x14, 0x00, 0x10, 0x00, 0x0c, 0x00, 0x04, 0x00,
  0x0c, 0x00, 0x00, 0x00, 0xbd, 0x5d, 0xeb, 0x8d, 0x91, 0xba, 0xc2, 0x45,
  0x02, 0x00, 0x00, 0x00, 0x02, 0x00, 0x00, 0x00, 0x04, 0x00, 0x00, 0x00,
  0x06, 0x00, 0x00, 0x00, 0x32, 0x2e, 0x32, 0x30, 0x2e, 0x30, 0x00, 0x00,
  0xea, 0xf8, 0xff, 0xff, 0x04, 0x00, 0x00, 0x00, 0x10, 0x00, 0x00, 0x00,
  0x31, 0x2e, 0x31, 0x34, 0x2e, 0x30, 0x00, 0x00, 0x00, 0x00, 0x00, 0x00,
  0x00, 0x00, 0x00, 0x00, 0xc8, 0xee, 0xff, 0xff, 0xcc, 0xee, 0xff, 0xff,
  0xd0, 0xee, 0xff, 0xff, 0xd4, 0xee, 0xff, 0xff, 0xd8, 0xee, 0xff, 0xff,
  0x1a, 0xf9, 0xff, 0xff, 0x04, 0x00, 0x00, 0x00, 0x48, 0x00, 0x00, 0x00,
  0x23, 0xd0, 0xf0, 0x7f, 0x7b, 0x79, 0x76, 0x48, 0x62, 0x07, 0xd3, 0xde,
  0x1a, 0xc6, 0x27, 0x81, 0xdf, 0xea, 0x3a, 0x42, 0x31, 0x14, 0x21, 0x25,
  0x81, 0x9e, 0xce, 0xfc, 0xcf, 0x81, 0x3c, 0x16, 0xa0, 0x53, 0x47, 0xfc,
  0x0f, 0x5e, 0x66, 0xf9, 0x0c, 0xea, 0xe8, 0xb2, 0x81, 0x3d, 0x2a, 0x75,
  0x07, 0x35, 0x7f, 0x06, 0xe4, 0x11, 0x4b, 0x21, 0x1d, 0x3a, 0x36, 0x2f,
  0x37, 0x4f, 0x7f, 0x7f, 0x2e, 0x1f, 0x22, 0xfb, 0xe0, 0x2c, 0x01, 0x04,
  0x6e, 0xf9, 0xff, 0xff, 0x04, 0x00, 0x00, 0x00, 0x20, 0x00, 0x00, 0x00,
  0xc5, 0x04, 0x00, 0x00, 0x99, 0x29, 0x00, 0x00, 0x79, 0x07, 0x00, 0x00,
  0x10, 0x30, 0x00, 0x00, 0x62, 0x22, 0x00, 0x00, 0xc6, 0x00, 0x00, 0x00,
  0x2d, 0x02, 0x00, 0x00, 0xf6, 0xff, 0xff, 0xff, 0x9a, 0xf9, 0xff, 0xff,
  0x04, 0x00, 0x00, 0x00, 0x80, 0x04, 0x00, 0x00, 0xfe, 0xa8, 0x38, 0x1a,
  0x0b, 0x02, 0x07, 0x21, 0xfe, 0xa8, 0x25, 0xfc, 0x08, 0x04, 0x0a, 0x06,
  0x09, 0xb2, 0x14, 0xec, 0x09, 0x20, 0x0e, 0x0c, 0x02, 0xde, 0xfe, 0xdd,
  0xf3, 0x07, 0x02, 0x12, 0x0d, 0xdd, 0xf9, 0xc8, 0xef, 0x11, 0x05, 0x0a,
  0xe3, 0xd4, 0xfb, 0xea, 0xf9, 0xf5, 0xf0, 0x0e, 0x9a, 0x5e, 0x49, 0x1c,
  0x50, 0xcf, 0xb6, 0xc4, 0x81, 0x50, 0x2c, 0x36, 0x3b, 0xeb, 0x9c, 0xf3,
  0x9b, 0x5f, 0x45, 0x25, 0x49, 0xc7, 0x92, 0xe2, 0xd9, 0xfc, 0x07, 0xfb,
  0x04, 0xce, 0xea, 0xea, 0xd6, 0x05, 0x00, 0xfb, 0xf7, 0xaa, 0xf7, 0x07,
  0xd8, 0x0e, 0x07, 0x08, 0x02, 0x81, 0xd2, 0x0f, 0xfe, 0xfb, 0x0c, 0xf2,
  0x01, 0x09, 0xfa, 0x01, 0x18, 0x04, 0x15, 0xfc, 0x03, 0x23, 0x18, 0x15,
  0xf8, 0x07, 0x03, 0x0a, 0x05, 0xf4, 0xfc, 0x21, 0x15, 0x18, 0xf3, 0xf5,
  0x0e, 0x0b, 0x13, 0x07, 0x00, 0x25, 0xf7, 0xed, 0x0e, 0x0a, 0xfe, 0xf8,
  0xe7, 0x3b, 0xfe, 0xf2, 0x08, 0xfa, 0xe0, 0xfb, 0x30, 0xa0, 0x52, 0xe0,
  0x47, 0x40, 0x10, 0x3a, 0xeb, 0x85, 0x7f, 0x02, 0x4b, 0x35, 0x19, 0x3e,
  0x2a, 0xb8, 0xfd, 0x1a, 0x51, 0x16, 0x29, 0x37, 0x10, 0xe6, 0x54, 0x6d,
  0x37, 0xf2, 0x09, 0x0d, 0xd5, 0xe3, 0xfa, 0x46, 0x32, 0xc4, 0xd7, 0xb2,
  0x2e, 0xea, 0x53, 0x1c, 0x58, 0x1f, 0x0f, 0xf1, 0xd9, 0xeb, 0x42, 0x38,
  0x0d, 0xbc, 0xda, 0x17, 0x00, 0xcf, 0x20, 0x5f, 0xfc, 0xfe, 0x0c, 0xc0,
  0x2e, 0x92, 0x2f, 0x4b, 0x4d, 0x19, 0x31, 0x39, 0xf5, 0xff, 0x23, 0x0b,
  0x15, 0xfe, 0xfe, 0x11, 0xda, 0xfd, 0x12, 0x1c, 0x42, 0xe3, 0xe8, 0x04,
  0x05, 0xff, 0x10, 0xfd, 0x28, 0x03, 0xf8, 0x17, 0x00, 0xde, 0x41, 0x18,
  0x3b, 0xff, 0xfa, 0x03, 0xff, 0xcd, 0x7f, 0x41, 0x44, 0x0a, 0xfd, 0xee,
  0x08, 0xc0, 0x4b, 0x2f, 0x2f, 0x0a, 0x0a, 0x0b, 0x01, 0xf1, 0x18, 0x1e,
  0x13, 0x0f, 0x10, 0x22, 0x04, 0xd9, 0x09, 0x3c, 0x27, 0xf4, 0x06, 0xf7,
  0x0a, 0xd8, 0x0c, 0x13, 0x1e, 0x01, 0x1a, 0x0e, 0xfc, 0xa6, 0x0b, 0x1a,
  0x24, 0x11, 0x16, 0xe6, 0xfa, 0x81, 0x07, 0x73, 0x10, 0xf0, 0xef, 0x0a,
  0xff, 0xa7, 0x5f, 0x17, 0x6b, 0x04, 0xed, 0xf2, 0xfc, 0xee, 0x08, 0xf8,
  0x63, 0x0a, 0x09, 0xdd, 0x40, 0xda, 0x10, 0x49, 0x27, 0x45, 0x3e, 0x27,
  0xe3, 0x03, 0x00, 0x44, 0x5c, 0xce, 0xe8, 0xf1, 0xdf, 0xf8, 0x01, 0x20,
  0x19, 0xfc, 0xfb, 0xe4, 0x0d, 0xb4, 0x4e, 0x67, 0x57, 0x2f, 0x23, 0x2d,
  0xb5, 0x2e, 0x47, 0x3b, 0x43, 0xc9, 0xc0, 0xdf, 0x18, 0xc7, 0x2c, 0xf9,
  0x0b, 0x01, 0x13, 0x05, 0x1b, 0xbc, 0x07, 0x39, 0x24, 0xf9, 0x2c, 0xfa,
  0x1e, 0xc7, 0x3b, 0x0f, 0x31, 0x25, 0x16, 0x02, 0xf5, 0xc9, 0x3e, 0xfb,
  0x3e, 0xf7, 0x11, 0x1e, 0x03, 0x8b, 0x79, 0xfa, 0x7f, 0x27, 0x0c, 0x13,
  0xd7, 0xdd, 0x6c, 0x10, 0x53, 0xf1, 0xe1, 0x12, 0x2a, 0xd5, 0x49, 0xce,
  0x31, 0x27, 0x04, 0x03, 0xe8, 0xc6, 0x68, 0xe9, 0x48, 0x0c, 0x00, 0x08,
  0xf7, 0xf1, 0x25, 0xe5, 0x19, 0xe9, 0xf7, 0xeb, 0xba, 0x23, 0xdd, 0xed,
  0xf8, 0xf1, 0xcb, 0xa6, 0x08, 0x2e, 0x9f, 0x04, 0xf1, 0x19, 0x25, 0x47,
  0x12, 0x36, 0x8f, 0xed, 0xec, 0x32, 0x2b, 0x34, 0xbd, 0x13, 0xb6, 0xe4,
  0xe1, 0xec, 0xc5, 0x81, 0x11, 0x39, 0x82, 0x25, 0x8e, 0x02, 0x14, 0x20,
  0x1a, 0x44, 0x99, 0x07, 0xb2, 0x2d, 0x16, 0x06, 0xbe, 0x0e, 0x97, 0x05,
  0xd4, 0xd6, 0xe1, 0xbc, 0x02, 0xf0, 0x85, 0x45, 0xe3, 0xf1, 0x0c, 0x10,
  0x12, 0xc3, 0xb6, 0x2a, 0xc2, 0x22, 0x26, 0xfe, 0xf3, 0x07, 0xf9, 0x00,
  0x00, 0xec, 0xcd, 0x81, 0x0d, 0x06, 0x02, 0x00, 0xfa, 0x06, 0x01, 0xf8,
  0x16, 0x02, 0xee, 0xff, 0xfa, 0x0d, 0x0f, 0x0a, 0xf2, 0xfe, 0xf9, 0xfe,
  0xfa, 0xeb, 0xf9, 0x08, 0xe9, 0xfc, 0x0f, 0x04, 0x02, 0xd5, 0xe8, 0xe0,
  0xd6, 0x01, 0x14, 0xfd, 0x09, 0xe3, 0xde, 0xf6, 0x0b, 0xfa, 0xf6, 0x15,
  0xf4, 0xfd, 0x0a, 0x06, 0x0d, 0xfd, 0x0a, 0x15, 0x09, 0x0b, 0x13, 0x15,
  0x15, 0xf7, 0x0d, 0x23, 0xf0, 0x0a, 0x1e, 0x0e, 0x01, 0xfa, 0x0c, 0x06,
  0xff, 0xb2, 0xee, 0xc8, 0xe9, 0xf4, 0x15, 0xe3, 0xfc, 0xf1, 0xef, 0x02,
  0xdb, 0xf7, 0x16, 0xf1, 0x06, 0xc4, 0xe9, 0x1c, 0x03, 0xe8, 0x2d, 0xf4,
  0x03, 0x01, 0x04, 0x17, 0xfe, 0x06, 0x0e, 0xf1, 0x02, 0xfc, 0xff, 0xf9,
  0xfe, 0x08, 0x01, 0xfe, 0x17, 0xf0, 0xf9, 0xfb, 0x09, 0xa3, 0x1b, 0x0d,
  0xfb, 0xfe, 0x05, 0x03, 0x07, 0x81, 0x0e, 0x13, 0xfe, 0x00, 0x07, 0x06,
  0x0c, 0xcb, 0x06, 0x1b, 0xfd, 0x02, 0x0d, 0x05, 0x0f, 0xea, 0x24, 0xe5,
  0x17, 0x25, 0x22, 0x33, 0x14, 0x2a, 0x19, 0xe6, 0x10, 0x07, 0x19, 0x23,
  0x0b, 0x0c, 0x16, 0xd4, 0x17, 0x15, 0x17, 0x07, 0x05, 0xe1, 0x2c, 0x07,
  0x07, 0x17, 0x08, 0x14, 0x08, 0x0a, 0x0b, 0xe3, 0xf8, 0x16, 0x08, 0x0f,
  0xff, 0x22, 0xdc, 0xfe, 0xda, 0x0f, 0x02, 0x0b, 0xd2, 0x91, 0xfb, 0x98,
  0xf2, 0xe4, 0xd5, 0xdf, 0xfd, 0xbf, 0xac, 0x81, 0xae, 0xfb, 0x02, 0xf8,
  0xda, 0xee, 0x81, 0xdb, 0x88, 0xdc, 0xe8, 0xfa, 0xfc, 0x0f, 0xd3, 0xfd,
  0xef, 0xdb, 0xe9, 0x81, 0x22, 0x10, 0xcd, 0x00, 0xdd, 0xf9, 0x0a, 0xed,
  0x19, 0xfa, 0x10, 0xf7, 0x19, 0x0c, 0x11, 0xf1, 0xd9, 0x08, 0xe9, 0xf3,
  0xff, 0x00, 0xe2, 0xb2, 0x0d, 0x03, 0xfc, 0xf6, 0x0c, 0xfe, 0x13, 0x31,
  0x01, 0xf9, 0x00, 0xf4, 0x0f, 0x08, 0x07, 0x04, 0xb5, 0x02, 0x21, 0xf7,
  0x11, 0xfc, 0xb1, 0xb8, 0xb7, 0xff, 0x3b, 0xee, 0x13, 0x1e, 0xc6, 0x0a,
  0xd6, 0x01, 0x13, 0xf6, 0x0d, 0xcd, 0xf0, 0xff, 0x29, 0xf0, 0xdb, 0x0a,
  0xc5, 0x21, 0x1e, 0x1d, 0x2b, 0xd9, 0xdc, 0x38, 0xa9, 0xfa, 0x17, 0xf5,
  0xf5, 0xee, 0xfe, 0x03, 0x03, 0xca, 0xeb, 0xd2, 0xe9, 0xec, 0x13, 0xd4,
  0x04, 0xf8, 0xf1, 0xdc, 0x31, 0xce, 0x3d, 0x0b, 0x35, 0x37, 0x1b, 0x0a,
  0x4d, 0xc7, 0x2c, 0x3c, 0xde, 0x17, 0x38, 0x04, 0xef, 0x4e, 0xc7, 0x2f,
  0xfc, 0xe1, 0x16, 0xe0, 0xc1, 0x45, 0x81, 0x4c, 0xf4, 0xb9, 0xc9, 0x0b,
  0xe5, 0x60, 0xdf, 0x05, 0x36, 0x1c, 0xf5, 0x1d, 0xf0, 0xf3, 0x19, 0xe5,
  0x22, 0x01, 0xf6, 0xec, 0x0a, 0xde, 0x37, 0xce, 0x21, 0x1c, 0x0f, 0x18,
  0x0a, 0xc5, 0x19, 0xde, 0x18, 0x0a, 0x0b, 0x11, 0xf0, 0xfb, 0x5d, 0x27,
  0x2d, 0xf1, 0xf1, 0xec, 0xe5, 0xed, 0x23, 0xfd, 0x15, 0xdd, 0xd9, 0xea,
  0x03, 0x01, 0x05, 0xf6, 0x04, 0x06, 0xfa, 0xfe, 0x16, 0x90, 0x1e, 0x0b,
  0xbb, 0xff, 0x17, 0x00, 0x14, 0x81, 0x2e, 0xf4, 0xd7, 0x01, 0x10, 0x08,
  0x05, 0xd9, 0x0e, 0xc1, 0xfa, 0x04, 0xf8, 0x00, 0xd6, 0x0a, 0xfe, 0xfa,
  0x04, 0xc1, 0xd3, 0x81, 0xfd, 0x07, 0xfd, 0x07, 0x08, 0xc3, 0xea, 0xb0,
  0xe1, 0xea, 0x09, 0xe8, 0xf0, 0xd4, 0xd5, 0xd7, 0x12, 0x00, 0x11, 0xfe,
  0x12, 0x12, 0x0f, 0xf2, 0x13, 0x04, 0x32, 0x0f, 0x17, 0x15, 0x12, 0x21,
  0x14, 0xc0, 0x38, 0xf7, 0xf8, 0x09, 0x1a, 0x0b, 0xe7, 0x16, 0x17, 0xfd,
  0x07, 0xf7, 0xf0, 0xfb, 0xfb, 0x11, 0x0f, 0x14, 0x0b, 0x02, 0xfe, 0x06,
  0x06, 0xd8, 0x18, 0xdc, 0x22, 0x10, 0x05, 0x09, 0x23, 0xdf, 0x04, 0xd5,
  0xf1, 0x32, 0x13, 0x1c, 0x0a, 0xb1, 0xf7, 0x13, 0x19, 0x1d, 0x0d, 0xfc,
  0x38, 0x81, 0xd7, 0xc3, 0xcc, 0x3b, 0x11, 0x01, 0x07, 0x15, 0x0f, 0x03,
  0x53, 0x0d, 0x0e, 0x23, 0x0f, 0xaf, 0x1e, 0xd9, 0x2f, 0x0e, 0x0d, 0x02,
  0x0c, 0xe4, 0x15, 0xc2, 0x30, 0x0b, 0xf2, 0x06, 0x0c, 0x58, 0x0e, 0xe5,
  0x3e, 0x1b, 0x1a, 0x0d, 0x23, 0xf4, 0x08, 0x1b, 0x2c, 0x18, 0x16, 0x1d,
  0x2c, 0xc2, 0xf8, 0xea, 0x1d, 0x25, 0x14, 0x00, 0xe8, 0x16, 0xa6, 0x17,
  0xd6, 0x05, 0xfc, 0xf5, 0x2a, 0x2e, 0xf2, 0xf1, 0x09, 0x4a, 0x42, 0x3e,
  0xb0, 0x20, 0x99, 0x21, 0xd5, 0x86, 0x90, 0xca, 0x25, 0x21, 0x81, 0x3e,
  0xaf, 0x0c, 0x1d, 0x18, 0x31, 0x2b, 0xa8, 0x08, 0xf9, 0x28, 0x19, 0x0f,
  0xb6, 0x2b, 0xf3, 0xf9, 0xfa, 0xb2, 0xb7, 0xd9, 0x43, 0xc6, 0xa0, 0x60,
  0xb8, 0x32, 0x4d, 0x45, 0xe2, 0x0d, 0xc8, 0x05, 0xdd, 0xc9, 0xe2, 0x0d,
  0xdb, 0xf5, 0x17, 0xeb, 0xfa, 0xe6, 0xf9, 0xba, 0x26, 0xfe, 0xff, 0xff,
  0x04, 0x00, 0x00, 0x00, 0x40, 0x00, 0x00, 0x00, 0x56, 0xfe, 0xff, 0xff,
  0xae, 0xff, 0xff, 0xff, 0x0f, 0x02, 0x00, 0x00, 0xd5, 0x01, 0x00, 0x00,
  0x76, 0x01, 0x00, 0x00, 0x7a, 0x00, 0x00, 0x00, 0x4e, 0x00, 0x00, 0x00,
  0x0c, 0x00, 0x00, 0x00, 0x16, 0xff, 0xff, 0xff, 0xe3, 0xff, 0xff, 0xff,
  0x0c, 0x00, 0x00, 0x00, 0xd1, 0xff, 0xff, 0xff, 0xec, 0xff, 0xff, 0xff,
  0x06, 0x00, 0x00, 0x00, 0xd8, 0xff, 0xff, 0xff, 0x6d, 0x00, 0x00, 0x00,
  0x72, 0xfe, 0xff, 0xff, 0x04, 0x00, 0x00, 0x00, 0xa0, 0x00, 0x00, 0x00,
  0x12, 0xb9, 0x02, 0x1e, 0x2e, 0xfa, 0x1f, 0xdf, 0x2c, 0xfc, 0x81, 0xd9,
  0xc0, 0xf3, 0x09, 0xf7, 0x5e, 0x1f, 0xa0, 0xf7, 0x24, 0xc1, 0x3d, 0x3d,
  0xb2, 0x7f, 0x03, 0xa6, 0xc2, 0xf6, 0xe2, 0x2c, 0x7f, 0xf0, 0xea, 0xf5,
  0xd7, 0xf1, 0xd4, 0xf5, 0x00, 0xb0, 0x5f, 0xfa, 0xfc, 0x27, 0x4b, 0xe1,
  0xd1, 0xd9, 0xf8, 0x0a, 0xb6, 0xed, 0x81, 0x2a, 0xe6, 0x2a, 0x5a, 0x22,
  0x56, 0x35, 0xee, 0x2b, 0x0a, 0xe9, 0x1f, 0xf6, 0x16, 0xf3, 0xf1, 0xff,
  0x81, 0x08, 0x1c, 0xfc, 0xee, 0xe5, 0x00, 0x09, 0x1d, 0x18, 0xfd, 0xd5,
  0xf8, 0xdc, 0x52, 0x1f, 0xde, 0x29, 0xf6, 0x6f, 0x7f, 0x00, 0xd9, 0x88,
  0x4c, 0x24, 0x11, 0xf2, 0x23, 0x22, 0x26, 0xaa, 0x21, 0xbb, 0x81, 0xf4,
  0xd0, 0xbb, 0x16, 0xcd, 0x9d, 0x15, 0xf8, 0xeb, 0xe7, 0xe7, 0xf4, 0x3a,
  0x7f, 0x4d, 0x3f, 0xb3, 0xd1, 0x63, 0xf5, 0x08, 0x86, 0x04, 0x24, 0x2b,
  0x15, 0x0d, 0x29, 0xdf, 0xe8, 0xe2, 0xae, 0x20, 0x0f, 0xbc, 0x1d, 0x81,
  0x81, 0x07, 0xee, 0x2f, 0xef, 0x2b, 0xcd, 0xda, 0x3a, 0x0d, 0x02, 0xc4,
  0x06, 0x11, 0xff, 0x11, 0x1e, 0xff, 0xff, 0xff, 0x04, 0x00, 0x00, 0x00,
  0x28, 0x00, 0x00, 0x00, 0x11, 0x01, 0x00, 0x00, 0xaa, 0xff, 0xff, 0xff,
  0xd6, 0xfd, 0xff, 0xff, 0x94, 0x00, 0x00, 0x00, 0x49, 0x00, 0x00, 0x00,
  0x39, 0xff, 0xff, 0xff, 0x61, 0xff, 0xff, 0xff, 0x15, 0x00, 0x00, 0x00,
  0x82, 0x00, 0x00, 0x00, 0xf0, 0xff, 0xff, 0xff, 0x52, 0xff, 0xff, 0xff,
  0x04, 0x00, 0x00, 0x00, 0x08, 0x00, 0x00, 0x00, 0x01, 0x00, 0x00, 0x00,
  0x02, 0x00, 0x00, 0x00, 0x28, 0xf5, 0xff, 0xff, 0x2c, 0xf5, 0xff, 0xff,
  0x0f, 0x00, 0x00, 0x00, 0x4d, 0x4c, 0x49, 0x52, 0x20, 0x43, 0x6f, 0x6e,
  0x76, 0x65, 0x72, 0x74, 0x65, 0x64, 0x2e, 0x00, 0x01, 0x00, 0x00, 0x00,
  0x14, 0x00, 0x00, 0x00, 0x00, 0x00, 0x0e, 0x00, 0x18, 0x00, 0x14, 0x00,
  0x10, 0x00, 0x0c, 0x00, 0x08, 0x00, 0x04, 0x00, 0x0e, 0x00, 0x00, 0x00,
  0x14, 0x00, 0x00, 0x00, 0x1c, 0x00, 0x00, 0x00, 0x80, 0x01, 0x00, 0x00,
  0x84, 0x01, 0x00, 0x00, 0x88, 0x01, 0x00, 0x00, 0x04, 0x00, 0x00, 0x00,
  0x6d, 0x61, 0x69, 0x6e, 0x00, 0x00, 0x00, 0x00, 0x05, 0x00, 0x00, 0x00,
  0x1c, 0x01, 0x00, 0x00, 0xcc, 0x00, 0x00, 0x00, 0x98, 0x00, 0x00, 0x00,
  0x50, 0x00, 0x00, 0x00, 0x14, 0x00, 0x00, 0x00, 0x00, 0x00, 0x0e, 0x00,
  0x1a, 0x00, 0x14, 0x00, 0x10, 0x00, 0x0c, 0x00, 0x0b, 0x00, 0x04, 0x00,
  0x0e, 0x00, 0x00, 0x00, 0x1c, 0x00, 0x00, 0x00, 0x00, 0x00, 0x00, 0x09,
  0x1c, 0x00, 0x00, 0x00, 0x20, 0x00, 0x00, 0x00, 0x03, 0x00, 0x00, 0x00,
  0x00, 0x00, 0x06, 0x00, 0x08, 0x00, 0x04, 0x00, 0x06, 0x00, 0x00, 0x00,
  0x00, 0x00, 0x80, 0x3f, 0x01, 0x00, 0x00, 0x00, 0x0c, 0x00, 0x00, 0x00,
  0x01, 0x00, 0x00, 0x00, 0x0b, 0x00, 0x00, 0x00, 0xca, 0xff, 0xff, 0xff,
  0x14, 0x00, 0x00, 0x00, 0x00, 0x00, 0x00, 0x08, 0x10, 0x00, 0x00, 0x00,
  0x14, 0x00, 0x00, 0x00, 0x02, 0x00, 0x00, 0x00, 0xf8, 0xf5, 0xff, 0xff,
  0x01, 0x00, 0x00, 0x00, 0x0b, 0x00, 0x00, 0x00, 0x03, 0x00, 0x00, 0x00,
  0x0a, 0x00, 0x00, 0x00, 0x03, 0x00, 0x00, 0x00, 0x02, 0x00, 0x00, 0x00,
  0x00, 0x00, 0x0e, 0x00, 0x18, 0x00, 0x14, 0x00, 0x10, 0x00, 0x0c, 0x00,
  0x0b, 0x00, 0x04, 0x00, 0x0e, 0x00, 0x00, 0x00, 0x14, 0x00, 0x00, 0x00,
  0x00, 0x00, 0x00, 0x1b, 0x10, 0x00, 0x00, 0x00, 0x14, 0x00, 0x00, 0x00,
  0x01, 0x00, 0x00, 0x00, 0x3c, 0xf6, 0xff, 0xff, 0x01, 0x00, 0x00, 0x00,
  0x0a, 0x00, 0x00, 0x00, 0x02, 0x00, 0x00, 0x00, 0x09, 0x00, 0x00, 0x00,
  0x01, 0x00, 0x00, 0x00, 0xc2, 0xff, 0xff, 0xff, 0x10, 0x00, 0x00, 0x00,
  0x00, 0x00, 0x00, 0x01, 0x18, 0x00, 0x00, 0x00, 0x1c, 0x00, 0x00, 0x00,
  0xb4, 0xff, 0xff, 0xff, 0x00, 0x00, 0x00, 0x01, 0x02, 0x00, 0x00, 0x00,
  0x02, 0x00, 0x00, 0x00, 0x01, 0x00, 0x00, 0x00, 0x09, 0x00, 0x00, 0x00,
  0x03, 0x00, 0x00, 0x00, 0x08, 0x00, 0x00, 0x00, 0x05, 0x00, 0x00, 0x00,
  0x04, 0x00, 0x00, 0x00, 0x00, 0x00, 0x0e, 0x00, 0x14, 0x00, 0x00, 0x00,
  0x10, 0x00, 0x0c, 0x00, 0x0b, 0x00, 0x04, 0x00, 0x0e, 0x00, 0x00, 0x00,
  0x1c, 0x00, 0x00, 0x00, 0x00, 0x00, 0x00, 0x01, 0x24, 0x00, 0x00, 0x00,
  0x28, 0x00, 0x00, 0x00, 0x0c, 0x00, 0x10, 0x00, 0x00, 0x00, 0x0c, 0x00,
  0x08, 0x00, 0x07, 0x00, 0x0c, 0x00, 0x00, 0x00, 0x00, 0x00, 0x00, 0x01,
  0x02, 0x00, 0x00, 0x00, 0x02, 0x00, 0x00, 0x00, 0x01, 0x00, 0x00, 0x00,
  0x08, 0x00, 0x00, 0x00, 0x03, 0x00, 0x00, 0x00, 0x00, 0x00, 0x00, 0x00,
  0x07, 0x00, 0x00, 0x00, 0x06, 0x00, 0x00, 0x00, 0x01, 0x00, 0x00, 0x00,
  0x0c, 0x00, 0x00, 0x00, 0x01, 0x00, 0x00, 0x00, 0x00, 0x00, 0x00, 0x00,
  0x0d, 0x00, 0x00, 0x00, 0x40, 0x09, 0x00, 0x00, 0xe4, 0x08, 0x00, 0x00,
  0xfc, 0x07, 0x00, 0x00, 0x28, 0x07, 0x00, 0x00, 0x14, 0x06, 0x00, 0x00,
  0xf0, 0x04, 0x00, 0x00, 0x3c, 0x04, 0x00, 0x00, 0x78, 0x03, 0x00, 0x00,
  0xa4, 0x02, 0x00, 0x00, 0xb0, 0x01, 0x00, 0x00, 0x1c, 0x01, 0x00, 0x00,
  0x80, 0x00, 0x00, 0x00, 0x04, 0x00, 0x00, 0x00, 0x0a, 0xf7, 0xff, 0xff,
  0x00, 0x00, 0x00, 0x01, 0x18, 0x00, 0x00, 0x00, 0x20, 0x00, 0x00, 0x00,
  0x3c, 0x00, 0x00, 0x00, 0x0d, 0x00, 0x00, 0x00, 0x00, 0x00, 0x00, 0x09,
  0x50, 0x00, 0x00, 0x00, 0x02, 0x00, 0x00, 0x00, 0xff, 0xff, 0xff, 0xff,
  0x0a, 0x00, 0x00, 0x00, 0xec, 0xf6, 0xff, 0xff, 0x08, 0x00, 0x00, 0x00,
  0x10, 0x00, 0x00, 0x00, 0x01, 0x00, 0x00, 0x00, 0x80, 0xff, 0xff, 0xff,
  0xff, 0xff, 0xff, 0xff, 0x01, 0x00, 0x00, 0x00, 0x00, 0x00, 0x80, 0x3b,
  0x1b, 0x00, 0x00, 0x00, 0x53, 0x74, 0x61, 0x74, 0x65, 0x66, 0x75, 0x6c,
  0x50, 0x61, 0x72, 0x74, 0x69, 0x74, 0x69, 0x6f, 0x6e, 0x65, 0x64, 0x43,
  0x61, 0x6c, 0x6c, 0x5f, 0x31, 0x3a, 0x30, 0x00, 0x02, 0x00, 0x00, 0x00,
  0x01, 0x00, 0x00, 0x00, 0x0a, 0x00, 0x00, 0x00, 0x82, 0xf7, 0xff, 0xff,
  0x00, 0x00, 0x00, 0x01, 0x18, 0x00, 0x00, 0x00, 0x20, 0x00, 0x00, 0x00,
  0x3c, 0x00, 0x00, 0x00, 0x0c, 0x00, 0x00, 0x00, 0x00, 0x00, 0x00, 0x09,
  0x70, 0x00, 0x00, 0x00, 0x02, 0x00, 0x00, 0x00, 0xff, 0xff, 0xff, 0xff,
  0x0a, 0x00, 0x00, 0x00, 0x64, 0xf7, 0xff, 0xff, 0x08, 0x00, 0x00, 0x00,
  0x10, 0x00, 0x00, 0x00, 0x01, 0x00, 0x00, 0x00, 0x47, 0x00, 0x00, 0x00,
  0x00, 0x00, 0x00, 0x00, 0x01, 0x00, 0x00, 0x00, 0x5c, 0x26, 0x3d, 0x3e,
  0x38, 0x00, 0x00, 0x00, 0x73, 0x65, 0x71, 0x75, 0x65, 0x6e, 0x74, 0x69,
  0x61, 0x6c, 0x5f, 0x31, 0x2f, 0x64, 0x65, 0x6e, 0x73, 0x65, 0x5f, 0x31,
  0x2f, 0x4d, 0x61, 0x74, 0x4d, 0x75, 0x6c, 0x3b, 0x73, 0x65, 0x71, 0x75,
  0x65, 0x6e, 0x74, 0x69, 0x61, 0x6c, 0x5f, 0x31, 0x2f, 0x64, 0x65, 0x6e,
  0x73, 0x65, 0x5f, 0x31, 0x2f, 0x42, 0x69, 0x61, 0x73, 0x41, 0x64, 0x64,
  0x00, 0x00, 0x00, 0x00, 0x02, 0x00, 0x00, 0x00, 0x01, 0x00, 0x00, 0x00,
  0x0a, 0x00, 0x00, 0x00, 0x1a, 0xf8, 0xff, 0xff, 0x00, 0x00, 0x00, 0x01,
  0x18, 0x00, 0x00, 0x00, 0x20, 0x00, 0x00, 0x00, 0x40, 0x00, 0x00, 0x00,
  0x0b, 0x00, 0x00, 0x00, 0x00, 0x00, 0x00, 0x09, 0x68, 0x00, 0x00, 0x00,
  0x02, 0x00, 0x00, 0x00, 0xff, 0xff, 0xff, 0xff, 0x10, 0x00, 0x00, 0x00,
  0xfc, 0xf7, 0xff, 0xff, 0x08, 0x00, 0x00, 0x00, 0x14, 0x00, 0x00, 0x00,
  0x01, 0x00, 0x00, 0x00, 0x80, 0xff, 0xff, 0xff, 0xff, 0xff, 0xff, 0xff,
  0x00, 0x00, 0x00, 0x00, 0x01, 0x00, 0x00, 0x00, 0xb7, 0x7a, 0x09, 0x3e,
  0x2c, 0x00, 0x00, 0x00, 0x73, 0x65, 0x71, 0x75, 0x65, 0x6e, 0x74, 0x69,
  0x61, 0x6c, 0x5f, 0x31, 0x2f, 0x67, 0x6c, 0x6f, 0x62, 0x61, 0x6c, 0x5f,
  0x61, 0x76, 0x65, 0x72, 0x61, 0x67, 0x65, 0x5f, 0x70, 0x6f, 0x6f, 0x6c,
  0x69, 0x6e, 0x67, 0x32, 0x64, 0x5f, 0x31, 0x2f, 0x4d, 0x65, 0x61, 0x6e,
  0x00, 0x00, 0x00, 0x00, 0x02, 0x00, 0x00, 0x00, 0x01, 0x00, 0x00, 0x00,
  0x10, 0x00, 0x00, 0x00, 0xaa, 0xf8, 0xff, 0xff, 0x00, 0x00, 0x00, 0x01,
  0x18, 0x00, 0x00, 0x00, 0x28, 0x00, 0x00, 0x00, 0x44, 0x00, 0x00, 0x00,
  0x0a, 0x00, 0x00, 0x00, 0x00, 0x00, 0x00, 0x09, 0xc0, 0x00, 0x00, 0x00,
  0x04, 0x00, 0x00, 0x00, 0xff, 0xff, 0xff, 0xff, 0x07, 0x00, 0x00, 0x00,
  0x07, 0x00, 0x00, 0x00, 0x10, 0x00, 0x00, 0x00, 0x94, 0xf8, 0xff, 0xff,
  0x08, 0x00, 0x00, 0x00, 0x10, 0x00, 0x00, 0x00, 0x01, 0x00, 0x00, 0x00,
  0x80, 0xff, 0xff, 0xff, 0xff, 0xff, 0xff, 0xff, 0x01, 0x00, 0x00, 0x00,
  0x8c, 0xea, 0xf6, 0x3e, 0x80, 0x00, 0x00, 0x00, 0x73, 0x65, 0x71, 0x75,
  0x65, 0x6e, 0x74, 0x69, 0x61, 0x6c, 0x5f, 0x31, 0x2f, 0x63, 0x6f, 0x6e,
  0x76, 0x32, 0x64, 0x5f, 0x31, 0x5f, 0x32, 0x2f, 0x52, 0x65, 0x6c, 0x75,
  0x3b, 0x73, 0x65, 0x71, 0x75, 0x65, 0x6e, 0x74, 0x69, 0x61, 0x6c, 0x5f,
  0x31, 0x2f, 0x63, 0x6f, 0x6e, 0x76, 0x32, 0x64, 0x5f, 0x31, 0x5f, 0x32,
  0x2f, 0x42, 0x69, 0x61, 0x73, 0x41, 0x64, 0x64, 0x3b, 0x73, 0x65, 0x71,
  0x75, 0x65, 0x6e, 0x74, 0x69, 0x61, 0x6c, 0x5f, 0x31, 0x2f, 0x63, 0x6f,
  0x6e, 0x76, 0x32, 0x64, 0x5f, 0x31, 0x5f, 0x32, 0x2f, 0x63, 0x6f, 0x6e,
  0x76, 0x6f, 0x6c, 0x75, 0x74, 0x69, 0x6f, 0x6e, 0x3b, 0x73, 0x65, 0x71,
  0x75, 0x65, 0x6e, 0x74, 0x69, 0x61, 0x6c, 0x5f, 0x31, 0x2f, 0x63, 0x6f,
  0x6e, 0x76, 0x32, 0x64, 0x5f, 0x31, 0x5f, 0x32, 0x2f, 0x53, 0x71, 0x75,
  0x65, 0x65, 0x7a, 0x65, 0x00, 0x00, 0x00, 0x00, 0x04, 0x00, 0x00, 0x00,
  0x01, 0x00, 0x00, 0x00, 0x07, 0x00, 0x00, 0x00, 0x07, 0x00, 0x00, 0x00,
  0x10, 0x00, 0x00, 0x00, 0x9a, 0xf9, 0xff, 0xff, 0x00, 0x00, 0x00, 0x01,
  0x18, 0x00, 0x00, 0x00, 0x28, 0x00, 0x00, 0x00, 0x48, 0x00, 0x00, 0x00,
  0x09, 0x00, 0x00, 0x00, 0x00, 0x00, 0x00, 0x09, 0xa0, 0x00, 0x00, 0x00,
  0x04, 0x00, 0x00, 0x00, 0xff, 0xff, 0xff, 0xff, 0x0e, 0x00, 0x00, 0x00,
  0x0e, 0x00, 0x00, 0x00, 0x08, 0x00, 0x00, 0x00, 0x84, 0xf9, 0xff, 0xff,
  0x08, 0x00, 0x00, 0x00, 0x14, 0x00, 0x00, 0x00, 0x01, 0x00, 0x00, 0x00,
  0x80, 0xff, 0xff, 0xff, 0xff, 0xff, 0xff, 0xff, 0x00, 0x00, 0x00, 0x00,
  0x01, 0x00, 0x00, 0x00, 0x1e, 0x76, 0xb2, 0x3d, 0x5c, 0x00, 0x00, 0x00,
  0x73, 0x65, 0x71, 0x75, 0x65, 0x6e, 0x74, 0x69, 0x61, 0x6c, 0x5f, 0x31,
  0x2f, 0x63, 0x6f, 0x6e, 0x76, 0x32, 0x64, 0x5f, 0x31, 0x2f, 0x52, 0x65,
  0x6c, 0x75, 0x3b, 0x73, 0x65, 0x71, 0x75, 0x65, 0x6e, 0x74, 0x69, 0x61,
  0x6c, 0x5f, 0x31, 0x2f, 0x63, 0x6f, 0x6e, 0x76, 0x32, 0x64, 0x5f, 0x31,
  0x2f, 0x42, 0x69, 0x61, 0x73, 0x41, 0x64, 0x64, 0x3b, 0x73, 0x65, 0x71,
  0x75, 0x65, 0x6e, 0x74, 0x69, 0x61, 0x6c, 0x5f, 0x31, 0x2f, 0x63, 0x6f,
  0x6e, 0x76, 0x32, 0x64, 0x5f, 0x31, 0x2f, 0x63, 0x6f, 0x6e, 0x76, 0x6f,
  0x6c, 0x75, 0x74, 0x69, 0x6f, 0x6e, 0x3b, 0x31, 0x00, 0x00, 0x00, 0x00,
  0x04, 0x00, 0x00, 0x00, 0x01, 0x00, 0x00, 0x00, 0x0e, 0x00, 0x00, 0x00,
  0x0e, 0x00, 0x00, 0x00, 0x08, 0x00, 0x00, 0x00, 0xc2, 0xfa, 0xff, 0xff,
  0x00, 0x00, 0x00, 0x01, 0x14, 0x00, 0x00, 0x00, 0x88, 0x00, 0x00, 0x00,
  0x08, 0x00, 0x00, 0x00, 0x00, 0x00, 0x00, 0x09, 0x94, 0x00, 0x00, 0x00,
  0x3c, 0xfa, 0xff, 0xff, 0x08, 0x00, 0x00, 0x00, 0x4c, 0x00, 0x00, 0x00,
  0x08, 0x00, 0x00, 0x00, 0x00, 0x00, 0x00, 0x00, 0x00, 0x00, 0x00, 0x00,
  0x00, 0x00, 0x00, 0x00, 0x00, 0x00, 0x00, 0x00, 0x00, 0x00, 0x00, 0x00,
  0x00, 0x00, 0x00, 0x00, 0x00, 0x00, 0x00, 0x00, 0x00, 0x00, 0x00, 0x00,
  0x00, 0x00, 0x00, 0x00, 0x00, 0x00, 0x00, 0x00, 0x00, 0x00, 0x00, 0x00,
  0x00, 0x00, 0x00, 0x00, 0x00, 0x00, 0x00, 0x00, 0x00, 0x00, 0x00, 0x00,
  0x00, 0x00, 0x00, 0x00, 0x00, 0x00, 0x00, 0x00, 0x00, 0x00, 0x00, 0x00,
  0x08, 0x00, 0x00, 0x00, 0xf6, 0x66, 0xb9, 0x3c, 0x2b, 0xc7, 0x83, 0x3d,
  0xb8, 0x0e, 0x5f, 0x3d, 0xeb, 0x1e, 0xe8, 0x3c, 0xea, 0xaa, 0x06, 0x3d,
  0x7d, 0x8c, 0x58, 0x3d, 0xc2, 0x49, 0x08, 0x3d, 0x99, 0xc7, 0x83, 0x3d,
  0x12, 0x00, 0x00, 0x00, 0x74, 0x66, 0x6c, 0x2e, 0x70, 0x73, 0x65, 0x75,
  0x64, 0x6f, 0x5f, 0x71, 0x63, 0x6f, 0x6e, 0x73, 0x74, 0x35, 0x00, 0x00,
  0x04, 0x00, 0x00, 0x00, 0x08, 0x00, 0x00, 0x00, 0x03, 0x00, 0x00, 0x00,
  0x03, 0x00, 0x00, 0x00, 0x01, 0x00, 0x00, 0x00, 0x82, 0xfb, 0xff, 0xff,
  0x00, 0x00, 0x00, 0x01, 0x14, 0x00, 0x00, 0x00, 0x84, 0x00, 0x00, 0x00,
  0x07, 0x00, 0x00, 0x00, 0x00, 0x00, 0x00, 0x02, 0x90, 0x00, 0x00, 0x00,
  0xfc, 0xfa, 0xff, 0xff, 0x08, 0x00, 0x00, 0x00, 0x48, 0x00, 0x00, 0x00,
  0x08, 0x00, 0x00, 0x00, 0x00, 0x00, 0x00, 0x00, 0x00, 0x00, 0x00, 0x00,
  0x00, 0x00, 0x00, 0x00, 0x00, 0x00, 0x00, 0x00, 0x00, 0x00, 0x00, 0x00,
  0x00, 0x00, 0x00, 0x00, 0x00, 0x00, 0x00, 0x00, 0x00, 0x00, 0x00, 0x00,
  0x00, 0x00, 0x00, 0x00, 0x00, 0x00, 0x00, 0x00, 0x00, 0x00, 0x00, 0x00,
  0x00, 0x00, 0x00, 0x00, 0x00, 0x00, 0x00, 0x00, 0x00, 0x00, 0x00, 0x00,
  0x00, 0x00, 0x00, 0x00, 0x00, 0x00, 0x00, 0x00, 0x08, 0x00, 0x00, 0x00,
  0x18, 0x21, 0xba, 0x38, 0x77, 0x4b, 0x84, 0x39, 0xa8, 0xee, 0x5f, 0x39,
  0xf4, 0x07, 0xe9, 0x38, 0x1d, 0x32, 0x07, 0x39, 0xe4, 0x65, 0x59, 0x39,
  0x95, 0xd2, 0x08, 0x39, 0xe5, 0x4b, 0x84, 0x39, 0x12, 0x00, 0x00, 0x00,
  0x74, 0x66, 0x6c, 0x2e, 0x70, 0x73, 0x65, 0x75, 0x64, 0x6f, 0x5f, 0x71,
  0x63, 0x6f, 0x6e, 0x73, 0x74, 0x34, 0x00, 0x00, 0x01, 0x00, 0x00, 0x00,
  0x08, 0x00, 0x00, 0x00, 0x32, 0xfc, 0xff, 0xff, 0x00, 0x00, 0x00, 0x01,
  0x14, 0x00, 0x00, 0x00, 0xe8, 0x00, 0x00, 0x00, 0x06, 0x00, 0x00, 0x00,
  0x00, 0x00, 0x00, 0x09, 0xf4, 0x00, 0x00, 0x00, 0xac, 0xfb, 0xff, 0xff,
  0x08, 0x00, 0x00, 0x00, 0x8c, 0x00, 0x00, 0x00, 0x10, 0x00, 0x00, 0x00,
  0x00, 0x00, 0x00, 0x00, 0x00, 0x00, 0x00, 0x00, 0x00, 0x00, 0x00, 0x00,
  0x00, 0x00, 0x00, 0x00, 0x00, 0x00, 0x00, 0x00, 0x00, 0x00, 0x00, 0x00,
  0x00, 0x00, 0x00, 0x00, 0x00, 0x00, 0x00, 0x00, 0x00, 0x00, 0x00, 0x00,
  0x00, 0x00, 0x00, 0x00, 0x00, 0x00, 0x00, 0x00, 0x00, 0x00, 0x00, 0x00,
  0x00, 0x00, 0x00, 0x00, 0x00, 0x00, 0x00, 0x00, 0x00, 0x00, 0x00, 0x00,
  0x00, 0x00, 0x00, 0x00, 0x00, 0x00, 0x00, 0x00, 0x00, 0x00, 0x00, 0x00,
  0x00, 0x00, 0x00, 0x00, 0x00, 0x00, 0x00, 0x00, 0x00, 0x00, 0x00, 0x00,
  0x00, 0x00, 0x00, 0x00, 0x00, 0x00, 0x00, 0x00, 0x00, 0x00, 0x00, 0x00,
  0x00, 0x00, 0x00, 0x00, 0x00, 0x00, 0x00, 0x00, 0x00, 0x00, 0x00, 0x00,
  0x00, 0x00, 0x00, 0x00, 0x00, 0x00, 0x00, 0x00, 0x00, 0x00, 0x00, 0x00,
  0x00, 0x00, 0x00, 0x00, 0x00, 0x00, 0x00, 0x00, 0x00, 0x00, 0x00, 0x00,
  0x10, 0x00, 0x00, 0x00, 0x0f, 0x35, 0xa8, 0x3c, 0x46, 0x9d, 0x0c, 0x3d,
  0x6b, 0xde, 0xe5, 0x3b, 0x7b, 0x4b, 0x3b, 0x3c, 0x91, 0xd6, 0x1a, 0x3c,
  0xe4, 0x9c, 0x2d, 0x3c, 0xca, 0x15, 0x84, 0x3c, 0xfc, 0x98, 0x51, 0x3d,
  0x1d, 0xaf, 0x85, 0x3d, 0x61, 0x56, 0xa3, 0x3c, 0x70, 0xa2, 0x50, 0x3d,
  0x53, 0x56, 0x57, 0x3c, 0x11, 0x35, 0xe7, 0x3c, 0xaf, 0xdd, 0x06, 0x3d,
  0xc5, 0x66, 0x04, 0x3c, 0x9a, 0xd7, 0x62, 0x3c, 0x12, 0x00, 0x00, 0x00,
  0x74, 0x66, 0x6c, 0x2e, 0x70, 0x73, 0x65, 0x75, 0x64, 0x6f, 0x5f, 0x71,
  0x63, 0x6f, 0x6e, 0x73, 0x74, 0x33, 0x00, 0x00, 0x04, 0x00, 0x00, 0x00,
  0x10, 0x00, 0x00, 0x00, 0x03, 0x00, 0x00, 0x00, 0x03, 0x00, 0x00, 0x00,
  0x08, 0x00, 0x00, 0x00, 0x52, 0xfd, 0xff, 0xff, 0x00, 0x00, 0x00, 0x01,
  0x14, 0x00, 0x00, 0x00, 0xe4, 0x00, 0x00, 0x00, 0x05, 0x00, 0x00, 0x00,
  0x00, 0x00, 0x00, 0x02, 0xf0, 0x00, 0x00, 0x00, 0xcc, 0xfc, 0xff, 0xff,
  0x08, 0x00, 0x00, 0x00, 0x88, 0x00, 0x00, 0x00, 0x10, 0x00, 0x00, 0x00,
  0x00, 0x00, 0x00, 0x00, 0x00, 0x00, 0x00, 0x00, 0x00, 0x00, 0x00, 0x00,
  0x00, 0x00, 0x00, 0x00, 0x00, 0x00, 0x00, 0x00, 0x00, 0x00, 0x00, 0x00,
  0x00, 0x00, 0x00, 0x00, 0x00, 0x00, 0x00, 0x00, 0x00, 0x00, 0x00, 0x00,
  0x00, 0x00, 0x00, 0x00, 0x00, 0x00, 0x00, 0x00, 0x00, 0x00, 0x00, 0x00,
  0x00, 0x00, 0x00, 0x00, 0x00, 0x00, 0x00, 0x00, 0x00, 0x00, 0x00, 0x00,
  0x00, 0x00, 0x00, 0x00, 0x00, 0x00, 0x00, 0x00, 0x00, 0x00, 0x00, 0x00,
  0x00, 0x00, 0x00, 0x00, 0x00, 0x00, 0x00, 0x00, 0x00, 0x00, 0x00, 0x00,
  0x00, 0x00, 0x00, 0x00, 0x00, 0x00, 0x00, 0x00, 0x00, 0x00, 0x00, 0x00,
  0x00, 0x00, 0x00, 0x00, 0x00, 0x00, 0x00, 0x00, 0x00, 0x00, 0x00, 0x00,
  0x00, 0x00, 0x00, 0x00, 0x00, 0x00, 0x00, 0x00, 0x00, 0x00, 0x00, 0x00,
  0x00, 0x00, 0x00, 0x00, 0x00, 0x00, 0x00, 0x00, 0x10, 0x00, 0x00, 0x00,
  0x01, 0x85, 0xea, 0x3a, 0x77, 0x0c, 0x44, 0x3b, 0xb6, 0x3e, 0x20, 0x3a,
  0xe6, 0x90, 0x82, 0x3a, 0x44, 0xe1, 0x57, 0x3a, 0x62, 0x0e, 0x72, 0x3a,
  0x30, 0x28, 0xb8, 0x3a, 0x14, 0x1d, 0x92, 0x3b, 0xe1, 0x62, 0xba, 0x3b,
  0xd9, 0xba, 0xe3, 0x3a, 0x35, 0x71, 0x91, 0x3b, 0x61, 0x1d, 0x96, 0x3a,
  0x93, 0x2d, 0x21, 0x3b, 0xbb, 0x08, 0x3c, 0x3b, 0x18, 0x99, 0x38, 0x3a,
  0x93, 0x22, 0x9e, 0x3a, 0x12, 0x00, 0x00, 0x00, 0x74, 0x66, 0x6c, 0x2e,
  0x70, 0x73, 0x65, 0x75, 0x64, 0x6f, 0x5f, 0x71, 0x63, 0x6f, 0x6e, 0x73,
  0x74, 0x32, 0x00, 0x00, 0x01, 0x00, 0x00, 0x00, 0x10, 0x00, 0x00, 0x00,
  0x62, 0xfe, 0xff, 0xff, 0x00, 0x00, 0x00, 0x01, 0x14, 0x00, 0x00, 0x00,
  0xa0, 0x00, 0x00, 0x00, 0x04, 0x00, 0x00, 0x00, 0x00, 0x00, 0x00, 0x09,
  0xac, 0x00, 0x00, 0x00, 0xdc, 0xfd, 0xff, 0xff, 0x08, 0x00, 0x00, 0x00,
  0x5c, 0x00, 0x00, 0x00, 0x0a, 0x00, 0x00, 0x00, 0x00, 0x00, 0x00, 0x00,
  0x00, 0x00, 0x00, 0x00, 0x00, 0x00, 0x00, 0x00, 0x00, 0x00, 0x00, 0x00,
  0x00, 0x00, 0x00, 0x00, 0x00, 0x00, 0x00, 0x00, 0x00, 0x00, 0x00, 0x00,
  0x00, 0x00, 0x00, 0x00, 0x00, 0x00, 0x00, 0x00, 0x00, 0x00, 0x00, 0x00,
  0x00, 0x00, 0x00, 0x00, 0x00, 0x00, 0x00, 0x00, 0x00, 0x00, 0x00, 0x00,
  0x00, 0x00, 0x00, 0x00, 0x00, 0x00, 0x00, 0x00, 0x00, 0x00, 0x00, 0x00,
  0x00, 0x00, 0x00, 0x00, 0x00, 0x00, 0x00, 0x00, 0x00, 0x00, 0x00, 0x00,
  0x00, 0x00, 0x00, 0x00, 0x00, 0x00, 0x00, 0x00, 0x0a, 0x00, 0x00, 0x00,
  0xc9, 0x66, 0xc4, 0x3c, 0x9c, 0x7d, 0x8a, 0x3c, 0x51, 0x8f, 0x20, 0x3c,
  0xf4, 0x1e, 0x80, 0x3c, 0x72, 0xb9, 0xf3, 0x3c, 0xaf, 0xe3, 0x6f, 0x3c,
  0xc2, 0x74, 0xb8, 0x3c, 0xcf, 0x67, 0x9d, 0x3c, 0x1d, 0x91, 0x54, 0x3c,
  0x67, 0x03, 0x74, 0x3c, 0x12, 0x00, 0x00, 0x00, 0x74, 0x66, 0x6c, 0x2e,
  0x70, 0x73, 0x65, 0x75, 0x64, 0x6f, 0x5f, 0x71, 0x63, 0x6f, 0x6e, 0x73,
  0x74, 0x31, 0x00, 0x00, 0x02, 0x00, 0x00, 0x00, 0x0a, 0x00, 0x00, 0x00,
  0x10, 0x00, 0x00, 0x00, 0x32, 0xff, 0xff, 0xff, 0x00, 0x00, 0x00, 0x01,
  0x14, 0x00, 0x00, 0x00, 0xa0, 0x00, 0x00, 0x00, 0x03, 0x00, 0x00, 0x00,
  0x00, 0x00, 0x00, 0x02, 0xac, 0x00, 0x00, 0x00, 0xac, 0xfe, 0xff, 0xff,
  0x08, 0x00, 0x00, 0x00, 0x5c, 0x00, 0x00, 0x00, 0x0a, 0x00, 0x00, 0x00,
  0x00, 0x00, 0x00, 0x00, 0x00, 0x00, 0x00, 0x00, 0x00, 0x00, 0x00, 0x00,
  0x00, 0x00, 0x00, 0x00, 0x00, 0x00, 0x00, 0x00, 0x00, 0x00, 0x00, 0x00,
  0x00, 0x00, 0x00, 0x00, 0x00, 0x00, 0x00, 0x00, 0x00, 0x00, 0x00, 0x00,
  0x00, 0x00, 0x00, 0x00, 0x00, 0x00, 0x00, 0x00, 0x00, 0x00, 0x00, 0x00,
  0x00, 0x00, 0x00, 0x00, 0x00, 0x00, 0x00, 0x00, 0x00, 0x00, 0x00, 0x00,
  0x00, 0x00, 0x00, 0x00, 0x00, 0x00, 0x00, 0x00, 0x00, 0x00, 0x00, 0x00,
  0x00, 0x00, 0x00, 0x00, 0x00, 0x00, 0x00, 0x00, 0x00, 0x00, 0x00, 0x00,
  0x0a, 0x00, 0x00, 0x00, 0x4e, 0xf2, 0x52, 0x3b, 0x37, 0xbf, 0x14, 0x3b,
  0x53, 0x73, 0xac, 0x3a, 0xf6, 0x9b, 0x09, 0x3b, 0x13, 0xe3, 0x82, 0x3b,
  0xd7, 0xd3, 0x00, 0x3b, 0xcf, 0x1d, 0x46, 0x3b, 0x04, 0x10, 0x29, 0x3b,
  0x1b, 0x4f, 0xe4, 0x3a, 0xca, 0x0a, 0x03, 0x3b, 0x11, 0x00, 0x00, 0x00,
  0x74, 0x66, 0x6c, 0x2e, 0x70, 0x73, 0x65, 0x75, 0x64, 0x6f, 0x5f, 0x71,
  0x63, 0x6f, 0x6e, 0x73, 0x74, 0x00, 0x00, 0x00, 0x01, 0x00, 0x00, 0x00,
  0x0a, 0x00, 0x00, 0x00, 0x00, 0x00, 0x16, 0x00, 0x1c, 0x00, 0x18, 0x00,
  0x17, 0x00, 0x10, 0x00, 0x0c, 0x00, 0x08, 0x00, 0x00, 0x00, 0x00, 0x00,
  0x00, 0x00, 0x07, 0x00, 0x16, 0x00, 0x00, 0x00, 0x00, 0x00, 0x00, 0x01,
  0x18, 0x00, 0x00, 0x00, 0x18, 0x00, 0x00, 0x00, 0x02, 0x00, 0x00, 0x00,
  0x00, 0x00, 0x00, 0x02, 0x20, 0x00, 0x00, 0x00, 0x04, 0x00, 0x04, 0x00,
  0x04, 0x00, 0x00, 0x00, 0x0e, 0x00, 0x00, 0x00, 0x61, 0x72, 0x69, 0x74,
  0x68, 0x2e, 0x63, 0x6f, 0x6e, 0x73, 0x74, 0x61, 0x6e, 0x74, 0x00, 0x00,
  0x01, 0x00, 0x00, 0x00, 0x02, 0x00, 0x00, 0x00, 0x00, 0x00, 0x16, 0x00,
  0x20, 0x00, 0x1c, 0x00, 0x1b, 0x00, 0x14, 0x00, 0x10, 0x00, 0x0c, 0x00,
  0x00, 0x00, 0x00, 0x00, 0x08, 0x00, 0x07, 0x00, 0x16, 0x00, 0x00, 0x00,
  0x00, 0x00, 0x00, 0x01, 0x18, 0x00, 0x00, 0x00, 0x34, 0x00, 0x00, 0x00,
  0x50, 0x00, 0x00, 0x00, 0x01, 0x00, 0x00, 0x00, 0x00, 0x00, 0x00, 0x09,
  0x68, 0x00, 0x00, 0x00, 0x04, 0x00, 0x00, 0x00, 0xff, 0xff, 0xff, 0xff,
  0x1c, 0x00, 0x00, 0x00, 0x1c, 0x00, 0x00, 0x00, 0x01, 0x00, 0x00, 0x00,
  0x0c, 0x00, 0x0c, 0x00, 0x00, 0x00, 0x00, 0x00, 0x08, 0x00, 0x04, 0x00,
  0x0c, 0x00, 0x00, 0x00, 0x08, 0x00, 0x00, 0x00, 0x10, 0x00, 0x00, 0x00,
  0x01, 0x00, 0x00, 0x00, 0x80, 0xff, 0xff, 0xff, 0xff, 0xff, 0xff, 0xff,
  0x01, 0x00, 0x00, 0x00, 0x81, 0x80, 0x80, 0x3b, 0x1e, 0x00, 0x00, 0x00,
  0x73, 0x65, 0x72, 0x76, 0x69, 0x6e, 0x67, 0x5f, 0x64, 0x65, 0x66, 0x61,
  0x75, 0x6c, 0x74, 0x5f, 0x6b, 0x65, 0x72, 0x61, 0x73, 0x5f, 0x74, 0x65,
  0x6e, 0x73, 0x6f, 0x72, 0x3a, 0x30, 0x00, 0x00, 0x04, 0x00, 0x00, 0x00,
  0x01, 0x00, 0x00, 0x00, 0x1c, 0x00, 0x00, 0x00, 0x1c, 0x00, 0x00, 0x00,
  0x01, 0x00, 0x00, 0x00, 0x04, 0x00, 0x00, 0x00, 0x4c, 0x00, 0x00, 0x00,
  0x2c, 0x00, 0x00, 0x00, 0x18, 0x00, 0x00, 0x00, 0x04, 0x00, 0x00, 0x00,
  0xd0, 0xff, 0xff, 0xff, 0x19, 0x00, 0x00, 0x00, 0x02, 0x00, 0x00, 0x00,
  0x00, 0x00, 0x00, 0x19, 0xe0, 0xff, 0xff, 0xff, 0x09, 0x00, 0x00, 0x00,
  0x04, 0x00, 0x00, 0x00, 0x00, 0x00, 0x00, 0x09, 0xf0, 0xff, 0xff, 0xff,
  0x28, 0x00, 0x00, 0x00, 0x02, 0x00, 0x00, 0x00, 0x00, 0x00, 0x00, 0x28,
  0x0c, 0x00, 0x10, 0x00, 0x0f, 0x00, 0x00, 0x00, 0x08, 0x00, 0x04, 0x00,
  0x0c, 0x00, 0x00, 0x00, 0x03, 0x00, 0x00, 0x00, 0x03, 0x00, 0x00, 0x00,
  0x00, 0x00, 0x00, 0x03,
};
const unsigned int mnist_cnn_int8_model_len = 5200;
